const unsigned char model[] = {28,0,0,0,84,70,76,51,20,0,32,0,28,0,24,0,20,0,16,0,12,0,0,0,8,0,4,0,20,0,0,0,28,0,0,0,148,0,0,0,236,0,0,0,24,6,0,0,40,6,0,0,220,11,0,0,3,0,0,0,1,0,0,0,16,0,0,0,0,0,10,0,16,0,12,0,8,0,4,0,10,0,0,0,12,0,0,0,28,0,0,0,60,0,0,0,15,0,0,0,115,101,114,118,105,110,103,95,100,101,102,97,117,108,116,0,1,0,0,0,4,0,0,0,148,255,255,255,10,0,0,0,4,0,0,0,8,0,0,0,111,117,116,112,117,116,95,48,0,0,0,0,1,0,0,0,4,0,0,0,206,249,255,255,4,0,0,0,11,0,0,0,105,110,112,117,116,95,108,97,121,101,114,0,2,0,0,0,52,0,0,0,4,0,0,0,220,255,255,255,13,0,0,0,4,0,0,0,19,0,0,0,67,79,78,86,69,82,83,73,79,78,95,77,69,84,65,68,65,84,65,0,8,0,12,0,8,0,4,0,8,0,0,0,12,0,0,0,4,0,0,0,19,0,0,0,109,105,110,95,114,117,110,116,105,109,101,95,118,101,114,115,105,111,110,0,14,0,0,0,40,5,0,0,32,5,0,0,176,4,0,0,160,2,0,0,132,2,0,0,84,2,0,0,4,2,0,0,180,0,0,0,172,0,0,0,164,0,0,0,156,0,0,0,148,0,0,0,116,0,0,0,4,0,0,0,126,250,255,255,4,0,0,0,96,0,0,0,12,0,0,0,8,0,14,0,8,0,4,0,8,0,0,0,16,0,0,0,40,0,0,0,0,0,6,0,8,0,4,0,6,0,0,0,4,0,0,0,1,0,0,0,234,3,0,0,12,0,24,0,20,0,16,0,12,0,4,0,12,0,0,0,101,123,183,71,67,140,136,130,2,0,0,0,2,0,0,0,4,0,0,0,6,0,0,0,50,46,49,57,46,48,0,0,234,250,255,255,4,0,0,0,16,0,0,0,49,46,53,46,48,0,0,0,0,0,0,0,0,0,0,0,0,246,255,255,4,246,255,255,8,246,255,255,12,246,255,255,22,251,255,255,4,0,0,0,64,1,0,0,74,111,168,62,207,193,162,190,162,131,252,190,191,86,37,63,104,64,109,188,28,115,150,62,57,156,31,190,46,72,248,189,79,140,34,63,69,237,242,190,28,219,138,62,242,210,182,62,57,128,53,63,123,205,146,62,236,23,241,188,71,245,10,63,175,39,117,190,1,79,239,62,105,210,2,190,200,174,27,62,222,179,46,191,152,198,244,190,30,199,200,190,207,54,28,191,20,84,28,62,184,44,188,62,190,174,199,190,70,156,93,187,225,216,60,190,96,121,255,189,99,227,206,62,93,9,154,62,64,85,173,190,160,40,207,62,167,219,153,62,128,145,186,62,35,191,154,62,44,71,181,62,253,221,109,190,253,30,246,61,131,195,156,189,77,204,245,60,240,18,18,63,97,93,107,190,161,11,202,190,152,115,124,190,1,53,5,190,46,116,173,62,152,134,91,62,112,177,175,190,4,46,113,190,196,255,245,61,238,8,154,62,9,7,20,63,66,129,130,61,245,45,172,62,255,3,229,190,125,242,111,189,240,171,234,189,184,85,140,62,255,183,187,189,28,162,46,190,61,172,176,190,1,66,148,188,64,193,24,63,151,237,13,63,131,77,201,62,4,40,16,63,24,41,128,62,155,109,173,62,29,220,52,190,253,207,7,187,232,94,7,63,25,108,167,190,243,24,212,190,50,214,14,191,35,247,249,61,71,179,15,191,33,153,170,190,52,184,202,190,98,252,255,255,4,0,0,0,64,0,0,0,202,167,144,61,237,79,26,62,31,9,45,62,51,25,236,61,211,181,230,188,252,56,154,188,168,51,219,60,132,52,14,61,76,13,77,62,30,62,49,190,95,242,214,61,10,137,127,61,0,136,196,189,204,12,173,61,190,120,214,61,185,251,125,61,174,252,255,255,4,0,0,0,32,0,0,0,10,136,34,188,14,189,12,60,165,184,200,61,0,0,0,0,25,75,236,61,241,245,245,61,230,35,246,60,110,28,238,59,218,252,255,255,4,0,0,0,12,0,0,0,94,88,208,188,185,228,59,188,176,42,202,59,242,252,255,255,4,0,0,0,0,2,0,0,121,210,37,63,235,112,14,63,97,112,176,190,62,206,186,62,98,100,51,62,195,117,48,62,90,20,116,62,241,230,165,61,255,79,11,191,65,3,191,62,253,155,174,62,37,189,14,63,70,103,154,190,52,139,192,61,99,103,182,62,181,198,65,190,127,143,51,63,160,205,38,63,169,226,154,62,74,196,22,191,84,152,128,190,49,38,195,190,82,11,118,62,77,125,184,189,218,82,68,191,167,44,155,190,21,131,5,60,178,201,43,190,35,17,48,191,139,44,230,61,188,164,145,189,186,114,4,191,203,231,228,189,107,48,18,62,216,178,63,63,147,245,195,190,14,220,39,63,148,44,214,60,87,227,134,190,41,179,78,62,142,21,90,189,174,57,224,61,102,81,125,63,6,137,200,190,75,50,174,190,9,188,51,190,167,180,14,63,252,143,47,63,208,10,255,189,72,22,197,190,176,96,96,62,96,130,87,62,228,244,175,62,156,33,166,190,48,73,240,190,248,126,71,62,40,101,210,190,64,132,154,60,48,89,244,189,192,179,99,62,0,244,31,190,32,85,123,190,248,40,173,190,132,143,236,190,2,100,22,191,252,222,150,62,139,104,51,63,71,177,45,62,63,247,23,191,228,28,0,191,234,91,204,190,146,43,191,190,221,26,16,63,230,136,183,62,198,211,14,63,9,79,129,190,187,21,239,62,92,184,29,190,114,57,76,190,224,84,71,188,243,10,37,190,170,243,17,189,3,122,231,61,171,10,11,63,250,59,198,62,14,20,174,189,101,153,32,190,216,70,219,62,214,194,243,62,121,187,124,190,224,195,200,189,214,68,181,189,102,196,165,62,232,191,133,62,100,95,18,63,82,159,128,190,182,226,199,190,204,113,179,62,200,172,40,63,255,168,78,61,235,124,7,63,109,98,155,190,140,2,159,61,148,85,23,189,196,167,217,62,89,161,204,190,249,225,150,188,5,2,3,191,186,122,190,190,172,243,150,62,60,90,23,61,240,52,4,63,192,180,91,189,126,156,215,190,205,174,52,190,156,96,146,62,145,39,29,62,93,79,100,190,236,122,29,60,218,91,15,63,53,141,149,190,246,38,214,190,124,114,217,62,51,58,184,61,47,127,8,190,252,200,55,62,200,109,191,62,146,104,5,63,254,254,255,255,4,0,0,0,96,0,0,0,144,195,182,188,242,2,252,190,122,70,16,191,154,228,195,62,107,9,25,191,153,66,192,62,242,229,117,190,209,192,132,190,186,208,213,188,164,115,61,63,118,252,204,189,109,123,9,63,68,210,69,191,128,125,140,191,218,166,108,61,177,54,41,190,124,147,1,191,94,34,30,191,43,91,157,61,124,39,250,190,52,49,0,62,235,249,49,63,70,83,84,63,227,30,49,63,100,250,255,255,104,250,255,255,15,0,0,0,77,76,73,82,32,67,111,110,118,101,114,116,101,100,46,0,1,0,0,0,20,0,0,0,0,0,14,0,24,0,20,0,16,0,12,0,8,0,4,0,14,0,0,0,20,0,0,0,28,0,0,0,36,1,0,0,40,1,0,0,44,1,0,0,4,0,0,0,109,97,105,110,0,0,0,0,4,0,0,0,204,0,0,0,132,0,0,0,80,0,0,0,20,0,0,0,0,0,14,0,26,0,20,0,16,0,12,0,11,0,4,0,14,0,0,0,28,0,0,0,0,0,0,9,28,0,0,0,32,0,0,0,1,0,0,0,0,0,6,0,8,0,4,0,6,0,0,0,0,0,128,63,1,0,0,0,10,0,0,0,1,0,0,0,9,0,0,0,154,255,255,255,16,0,0,0,0,0,0,8,12,0,0,0,16,0,0,0,44,251,255,255,1,0,0,0,9,0,0,0,3,0,0,0,8,0,0,0,1,0,0,0,3,0,0,0,202,255,255,255,16,0,0,0,0,0,0,8,16,0,0,0,20,0,0,0,186,255,255,255,0,0,0,1,1,0,0,0,8,0,0,0,3,0,0,0,7,0,0,0,2,0,0,0,4,0,0,0,0,0,14,0,22,0,0,0,16,0,12,0,11,0,4,0,14,0,0,0,24,0,0,0,0,0,0,8,24,0,0,0,28,0,0,0,0,0,6,0,8,0,7,0,6,0,0,0,0,0,0,1,1,0,0,0,7,0,0,0,3,0,0,0,0,0,0,0,6,0,0,0,5,0,0,0,1,0,0,0,10,0,0,0,1,0,0,0,0,0,0,0,11,0,0,0,252,3,0,0,164,3,0,0,76,3,0,0,16,3,0,0,180,2,0,0,92,2,0,0,16,2,0,0,124,1,0,0,224,0,0,0,96,0,0,0,4,0,0,0,70,252,255,255,0,0,0,1,20,0,0,0,28,0,0,0,28,0,0,0,11,0,0,0,52,0,0,0,2,0,0,0,255,255,255,255,3,0,0,0,48,252,255,255,27,0,0,0,83,116,97,116,101,102,117,108,80,97,114,116,105,116,105,111,110,101,100,67,97,108,108,95,49,58,48,0,2,0,0,0,1,0,0,0,3,0,0,0,158,252,255,255,0,0,0,1,20,0,0,0,28,0,0,0,28,0,0,0,10,0,0,0,88,0,0,0,2,0,0,0,255,255,255,255,3,0,0,0,136,252,255,255,60,0,0,0,115,101,113,117,101,110,116,105,97,108,95,49,47,100,101,110,115,101,95,50,95,49,47,77,97,116,77,117,108,59,115,101,113,117,101,110,116,105,97,108,95,49,47,100,101,110,115,101,95,50,95,49,47,66,105,97,115,65,100,100,0,0,0,0,2,0,0,0,1,0,0,0,3,0,0,0,26,253,255,255,0,0,0,1,20,0,0,0,28,0,0,0,28,0,0,0,9,0,0,0,116,0,0,0,2,0,0,0,255,255,255,255,8,0,0,0,4,253,255,255,88,0,0,0,115,101,113,117,101,110,116,105,97,108,95,49,47,100,101,110,115,101,95,49,95,50,47,77,97,116,77,117,108,59,115,101,113,117,101,110,116,105,97,108,95,49,47,100,101,110,115,101,95,49,95,50,47,82,101,108,117,59,115,101,113,117,101,110,116,105,97,108,95,49,47,100,101,110,115,101,95,49,95,50,47,66,105,97,115,65,100,100,0,0,0,0,2,0,0,0,1,0,0,0,8,0,0,0,178,253,255,255,0,0,0,1,20,0,0,0,28,0,0,0,28,0,0,0,8,0,0,0,108,0,0,0,2,0,0,0,255,255,255,255,16,0,0,0,156,253,255,255,82,0,0,0,115,101,113,117,101,110,116,105,97,108,95,49,47,100,101,110,115,101,95,49,47,77,97,116,77,117,108,59,115,101,113,117,101,110,116,105,97,108,95,49,47,100,101,110,115,101,95,49,47,82,101,108,117,59,115,101,113,117,101,110,116,105,97,108,95,49,47,100,101,110,115,101,95,49,47,66,105,97,115,65,100,100,0,0,2,0,0,0,1,0,0,0,16,0,0,0,150,254,255,255,0,0,0,1,16,0,0,0,16,0,0,0,7,0,0,0,40,0,0,0,28,254,255,255,27,0,0,0,115,101,113,117,101,110,116,105,97,108,95,49,47,100,101,110,115,101,95,49,47,77,97,116,77,117,108,0,2,0,0,0,16,0,0,0,5,0,0,0,222,254,255,255,0,0,0,1,16,0,0,0,16,0,0,0,6,0,0,0,56,0,0,0,100,254,255,255,43,0,0,0,115,101,113,117,101,110,116,105,97,108,95,49,47,100,101,110,115,101,95,49,47,66,105,97,115,65,100,100,47,82,101,97,100,86,97,114,105,97,98,108,101,79,112,0,1,0,0,0,16,0,0,0,50,255,255,255,0,0,0,1,16,0,0,0,16,0,0,0,5,0,0,0,60,0,0,0,184,254,255,255,45,0,0,0,115,101,113,117,101,110,116,105,97,108,95,49,47,100,101,110,115,101,95,49,95,50,47,66,105,97,115,65,100,100,47,82,101,97,100,86,97,114,105,97,98,108,101,79,112,0,0,0,1,0,0,0,8,0,0,0,138,255,255,255,0,0,0,1,16,0,0,0,16,0,0,0,4,0,0,0,28,0,0,0,16,255,255,255,15,0,0,0,97,114,105,116,104,46,99,111,110,115,116,97,110,116,50,0,1,0,0,0,3,0,0,0,194,255,255,255,0,0,0,1,16,0,0,0,16,0,0,0,3,0,0,0,28,0,0,0,72,255,255,255,15,0,0,0,97,114,105,116,104,46,99,111,110,115,116,97,110,116,49,0,2,0,0,0,8,0,0,0,16,0,0,0,0,0,22,0,24,0,20,0,0,0,16,0,12,0,8,0,0,0,0,0,0,0,7,0,22,0,0,0,0,0,0,1,16,0,0,0,16,0,0,0,2,0,0,0,28,0,0,0,156,255,255,255,14,0,0,0,97,114,105,116,104,46,99,111,110,115,116,97,110,116,0,0,2,0,0,0,3,0,0,0,8,0,0,0,0,0,22,0,28,0,24,0,0,0,20,0,16,0,12,0,0,0,0,0,8,0,7,0,22,0,0,0,0,0,0,1,20,0,0,0,32,0,0,0,32,0,0,0,1,0,0,0,60,0,0,0,2,0,0,0,255,255,255,255,5,0,0,0,4,0,4,0,4,0,0,0,29,0,0,0,115,101,114,118,105,110,103,95,100,101,102,97,117,108,116,95,105,110,112,117,116,95,108,97,121,101,114,58,48,0,0,0,2,0,0,0,1,0,0,0,5,0,0,0,2,0,0,0,32,0,0,0,4,0,0,0,244,255,255,255,25,0,0,0,0,0,0,25,12,0,12,0,11,0,0,0,0,0,4,0,12,0,0,0,9,0,0,0,0,0,0,9};
const int model_len = 3136;
